WIDTH=16;
DEPTH=1376;
ADDRESS_RADIX=DEC;
DATA_RADIX=HEX;
CONTENT BEGIN
    0 : fffb;
    1 : 0153;
    2 : f9c6;
    3 : fdad;
    4 : fb1e;
    5 : 0110;
    6 : fb20;
    7 : 037d;
    8 : feed;
    9 : 05e2;
    10 : f721;
    11 : 0051;
    12 : faca;
    13 : fec0;
    14 : 0357;
    15 : ffc7;
    16 : 0987;
    17 : fd3e;
    18 : f9c3;
    19 : 024a;
    20 : fd69;
    21 : 05d3;
    22 : 004c;
    23 : 0534;
    24 : 0209;
    25 : fe60;
    26 : ff51;
    27 : 0108;
    28 : fb44;
    29 : ff6b;
    30 : fd5d;
    31 : 0041;
    32 : fd17;
    33 : f901;
    34 : fd6f;
    35 : fe52;
    36 : fb4b;
    37 : fe69;
    38 : ff97;
    39 : fc83;
    40 : 0021;
    41 : f7cf;
    42 : 006b;
    43 : fdb2;
    44 : fe15;
    45 : f98f;
    46 : 01a1;
    47 : fd60;
    48 : fd47;
    49 : fe1f;
    50 : ff84;
    51 : ff52;
    52 : ffea;
    53 : 049b;
    54 : 009f;
    55 : feee;
    56 : 0873;
    57 : fd21;
    58 : 0a9d;
    59 : fee6;
    60 : 0350;
    61 : 0539;
    62 : ff98;
    63 : 0223;
    64 : 0b25;
    65 : fd5f;
    66 : 0d0e;
    67 : ffa2;
    68 : 040f;
    69 : 0510;
    70 : fdd3;
    71 : 007b;
    72 : 0653;
    73 : 00f5;
    74 : 0a0e;
    75 : 037e;
    76 : 0169;
    77 : fdca;
    78 : ff12;
    79 : fd18;
    80 : 00e7;
    81 : fd76;
    82 : 06e4;
    83 : f981;
    84 : 0076;
    85 : ff96;
    86 : fad7;
    87 : 033d;
    88 : 0329;
    89 : 013d;
    90 : 084c;
    91 : 00b0;
    92 : 0c12;
    93 : 0258;
    94 : 02f9;
    95 : faf0;
    96 : 0555;
    97 : fd78;
    98 : fd8e;
    99 : fd40;
    100 : 0089;
    101 : 0036;
    102 : 0393;
    103 : fb6b;
    104 : 00e6;
    105 : fbbb;
    106 : fb23;
    107 : fc8f;
    108 : fb84;
    109 : fd90;
    110 : 0441;
    111 : ff6b;
    112 : 0237;
    113 : 0067;
    114 : 01c3;
    115 : fe74;
    116 : ff4f;
    117 : ff9d;
    118 : 07e0;
    119 : 018b;
    120 : 06b8;
    121 : 015d;
    122 : 027e;
    123 : 04e5;
    124 : 02cf;
    125 : 0216;
    126 : ff62;
    127 : fecc;
    128 : fff2;
    129 : 007c;
    130 : 0194;
    131 : 016d;
    132 : fdb7;
    133 : 00bb;
    134 : fef6;
    135 : ffa3;
    136 : 0361;
    137 : 027e;
    138 : 002c;
    139 : 0368;
    140 : 0062;
    141 : 019a;
    142 : 005f;
    143 : fd94;
    144 : ff88;
    145 : 0117;
    146 : 01c2;
    147 : fee5;
    148 : fc84;
    149 : f8f0;
    150 : fa66;
    151 : f645;
    152 : fee4;
    153 : 02c4;
    154 : ffdc;
    155 : fe8e;
    156 : fff6;
    157 : fc5f;
    158 : ff44;
    159 : fb34;
    160 : fb1f;
    161 : ffb5;
    162 : fabc;
    163 : fe06;
    164 : fc2d;
    165 : fdf5;
    166 : fb78;
    167 : fe65;
    168 : fdc7;
    169 : ffd5;
    170 : 00d9;
    171 : fc80;
    172 : fea2;
    173 : fe5d;
    174 : fa0b;
    175 : fedb;
    176 : fe82;
    177 : fe1c;
    178 : f606;
    179 : f8da;
    180 : fb3d;
    181 : fca1;
    182 : 032c;
    183 : 0043;
    184 : 05dd;
    185 : 0050;
    186 : f75d;
    187 : fcbc;
    188 : f93f;
    189 : 0340;
    190 : 021e;
    191 : 069e;
    192 : 00e0;
    193 : 0201;
    194 : fa1d;
    195 : fd86;
    196 : fcbd;
    197 : 00b8;
    198 : fe4c;
    199 : ffae;
    200 : ffdc;
    201 : fd3d;
    202 : ff2a;
    203 : fdee;
    204 : ff11;
    205 : 001f;
    206 : 01c0;
    207 : 00b6;
    208 : 0539;
    209 : fba3;
    210 : fffb;
    211 : ff83;
    212 : ff4d;
    213 : fda9;
    214 : ffbc;
    215 : fc85;
    216 : 011d;
    217 : f6d1;
    218 : 0acd;
    219 : f5da;
    220 : fc30;
    221 : 00d5;
    222 : ff43;
    223 : 0234;
    224 : fbce;
    225 : 0444;
    226 : fc30;
    227 : ffc0;
    228 : fce8;
    229 : fe3f;
    230 : fee9;
    231 : 066b;
    232 : fd40;
    233 : 08b5;
    234 : fd24;
    235 : 0097;
    236 : 0099;
    237 : fc64;
    238 : 00f0;
    239 : 02f2;
    240 : 0247;
    241 : 066f;
    242 : 0011;
    243 : 01bd;
    244 : 0300;
    245 : f9c7;
    246 : 0476;
    247 : faa4;
    248 : 026f;
    249 : fd77;
    250 : 0185;
    251 : fcb5;
    252 : 020b;
    253 : ff47;
    254 : 0303;
    255 : 05ce;
    256 : 0069;
    257 : 043f;
    258 : fcab;
    259 : fd3b;
    260 : fcdf;
    261 : fe11;
    262 : fff4;
    263 : 02d5;
    264 : fff3;
    265 : ff68;
    266 : 01a6;
    267 : 0276;
    268 : 0804;
    269 : 019d;
    270 : fd8c;
    271 : fe57;
    272 : fbd9;
    273 : fe8c;
    274 : ff84;
    275 : fb22;
    276 : 06b6;
    277 : f934;
    278 : fd52;
    279 : fe54;
    280 : fc90;
    281 : fc29;
    282 : fcef;
    283 : 0222;
    284 : 0321;
    285 : 033a;
    286 : fb85;
    287 : fb4e;
    288 : fae7;
    289 : fa7b;
    290 : fbdb;
    291 : fdc3;
    292 : 0113;
    293 : ff5e;
    294 : ff72;
    295 : fe7a;
    296 : 01ae;
    297 : 0213;
    298 : 003b;
    299 : 024f;
    300 : ffd5;
    301 : 0029;
    302 : 0237;
    303 : ff76;
    304 : fefc;
    305 : fd2c;
    306 : 021d;
    307 : fe70;
    308 : 052c;
    309 : fc45;
    310 : 04e1;
    311 : fe50;
    312 : fc78;
    313 : fb5c;
    314 : fe6e;
    315 : 018f;
    316 : feab;
    317 : 0326;
    318 : 03fc;
    319 : 0475;
    320 : faf0;
    321 : faf5;
    322 : fa1c;
    323 : fc25;
    324 : 00cd;
    325 : 01fb;
    326 : 038d;
    327 : 028b;
    328 : fd1c;
    329 : f907;
    330 : f99b;
    331 : fa5d;
    332 : 0011;
    333 : 0179;
    334 : fed7;
    335 : 0298;
    336 : 01dd;
    337 : 0278;
    338 : 0033;
    339 : 0716;
    340 : 0125;
    341 : ff80;
    342 : 0319;
    343 : 01c7;
    344 : fbfd;
    345 : 051d;
    346 : 044e;
    347 : 036d;
    348 : fe83;
    349 : 01ec;
    350 : 00a8;
    351 : 02f9;
    352 : 021d;
    353 : ffec;
    354 : 0412;
    355 : 03ab;
    356 : fe95;
    357 : fe2a;
    358 : f7a0;
    359 : fcfe;
    360 : f37f;
    361 : fc4c;
    362 : 00e3;
    363 : 0462;
    364 : 00f7;
    365 : 00a1;
    366 : fcea;
    367 : fa64;
    368 : f6aa;
    369 : fd04;
    370 : ff6f;
    371 : 026e;
    372 : fd47;
    373 : facf;
    374 : f8b5;
    375 : f99f;
    376 : fa0c;
    377 : fe63;
    378 : 01c4;
    379 : 01e8;
    380 : 0323;
    381 : 029d;
    382 : 0042;
    383 : 059f;
    384 : 0368;
    385 : 0124;
    386 : 08c1;
    387 : f94d;
    388 : fdcf;
    389 : 036e;
    390 : fd2f;
    391 : 0087;
    392 : f77b;
    393 : ffce;
    394 : f493;
    395 : 0457;
    396 : fde3;
    397 : fe1a;
    398 : fd13;
    399 : fdb8;
    400 : fde6;
    401 : fc05;
    402 : f908;
    403 : 0226;
    404 : fcbb;
    405 : fa09;
    406 : 02e2;
    407 : fff0;
    408 : 0377;
    409 : 027a;
    410 : 0600;
    411 : 05cd;
    412 : fdcb;
    413 : fb46;
    414 : ffe1;
    415 : fd9d;
    416 : 03dc;
    417 : ff5b;
    418 : 06cf;
    419 : 05ed;
    420 : 0022;
    421 : fe7a;
    422 : fe51;
    423 : 03e2;
    424 : fda2;
    425 : 023a;
    426 : ff69;
    427 : fff8;
    428 : 0469;
    429 : ff40;
    430 : fd06;
    431 : 0330;
    432 : 005f;
    433 : ffa1;
    434 : f881;
    435 : fa25;
    436 : f967;
    437 : f8ad;
    438 : fc93;
    439 : fc48;
    440 : fb4f;
    441 : fb56;
    442 : fdc2;
    443 : fef1;
    444 : fd0f;
    445 : 01b6;
    446 : f959;
    447 : fcf7;
    448 : fda0;
    449 : fbc7;
    450 : 0404;
    451 : 02e8;
    452 : 08a2;
    453 : 0760;
    454 : f8eb;
    455 : fdef;
    456 : fcf8;
    457 : 001f;
    458 : fdbe;
    459 : 001e;
    460 : 0085;
    461 : 0287;
    462 : 0088;
    463 : fe10;
    464 : ffd8;
    465 : ff1c;
    466 : feaf;
    467 : f806;
    468 : fc4d;
    469 : f797;
    470 : fb66;
    471 : fac0;
    472 : 00dc;
    473 : f909;
    474 : 01f6;
    475 : fe27;
    476 : fe09;
    477 : 0238;
    478 : fda7;
    479 : ffea;
    480 : fdbe;
    481 : f9e0;
    482 : feb4;
    483 : 046a;
    484 : 0010;
    485 : 0696;
    486 : 01a7;
    487 : 01e3;
    488 : 0091;
    489 : fb9e;
    490 : 022d;
    491 : 0155;
    492 : 03cb;
    493 : 005d;
    494 : 0381;
    495 : fde3;
    496 : 00a1;
    497 : fc17;
    498 : 04e3;
    499 : 02d9;
    500 : ff6f;
    501 : 04fb;
    502 : 021a;
    503 : 0298;
    504 : 0217;
    505 : feab;
    506 : 01dd;
    507 : fedf;
    508 : ffd7;
    509 : fbf6;
    510 : fc9b;
    511 : fcca;
    512 : fc36;
    513 : fd1b;
    514 : fe5e;
    515 : fd98;
    516 : fc64;
    517 : fce7;
    518 : 0413;
    519 : 0067;
    520 : 0750;
    521 : 022b;
    522 : 0010;
    523 : fdb5;
    524 : fa03;
    525 : ff3e;
    526 : 010f;
    527 : 02b0;
    528 : 02ac;
    529 : 0114;
    530 : 019a;
    531 : 0359;
    532 : f8f1;
    533 : fdd5;
    534 : f861;
    535 : ff7e;
    536 : f9f3;
    537 : fb38;
    538 : fe7d;
    539 : 0128;
    540 : f96a;
    541 : ff88;
    542 : faa4;
    543 : fe63;
    544 : fcf3;
    545 : ff86;
    546 : fe55;
    547 : 001d;
    548 : ffd1;
    549 : 04c1;
    550 : ff83;
    551 : fe5f;
    552 : 0344;
    553 : fc2a;
    554 : 025a;
    555 : fa62;
    556 : ff04;
    557 : 00b5;
    558 : fdbc;
    559 : 0232;
    560 : f84c;
    561 : 03bc;
    562 : f7ff;
    563 : 07f9;
    564 : 0217;
    565 : 01a8;
    566 : 009d;
    567 : fe05;
    568 : 08d0;
    569 : feeb;
    570 : 0c49;
    571 : fddd;
    572 : 04cb;
    573 : fc1f;
    574 : 0164;
    575 : 01d9;
    576 : 011c;
    577 : feba;
    578 : 017a;
    579 : 043b;
    580 : 049c;
    581 : fa53;
    582 : 01de;
    583 : fef5;
    584 : 058b;
    585 : fd6d;
    586 : 0611;
    587 : 007b;
    588 : 01f7;
    589 : 01eb;
    590 : fa61;
    591 : fa6e;
    592 : fa77;
    593 : 01dc;
    594 : fefc;
    595 : 0492;
    596 : 0071;
    597 : 08df;
    598 : 00bb;
    599 : fef6;
    600 : fe14;
    601 : f6ea;
    602 : 017a;
    603 : f96f;
    604 : 0523;
    605 : f5d4;
    606 : ffc7;
    607 : fb96;
    608 : fe42;
    609 : fac6;
    610 : 00ca;
    611 : fa6c;
    612 : 047d;
    613 : fbb3;
    614 : ff31;
    615 : ffaf;
    616 : fef5;
    617 : 0230;
    618 : 00be;
    619 : 08c0;
    620 : ffac;
    621 : 0d93;
    622 : fdca;
    623 : fd12;
    624 : fd3b;
    625 : 02fb;
    626 : 017a;
    627 : 07b1;
    628 : fe92;
    629 : 0977;
    630 : 018d;
    631 : 00a4;
    632 : fb31;
    633 : 038d;
    634 : ff15;
    635 : 0042;
    636 : ff28;
    637 : fec5;
    638 : fce1;
    639 : 022e;
    640 : 0526;
    641 : 01d8;
    642 : 00d9;
    643 : 01a1;
    644 : f9cd;
    645 : 0163;
    646 : f7e2;
    647 : 0012;
    648 : 03c6;
    649 : 0080;
    650 : 00fb;
    651 : faf2;
    652 : f9ac;
    653 : f7a2;
    654 : f19a;
    655 : fbbd;
    656 : 051b;
    657 : 039d;
    658 : ff4a;
    659 : 008f;
    660 : fb03;
    661 : fdfc;
    662 : fb8b;
    663 : 002f;
    664 : 021b;
    665 : 049e;
    666 : 00a4;
    667 : 037a;
    668 : fc39;
    669 : 0391;
    670 : f821;
    671 : 0601;
    672 : ff91;
    673 : 00cd;
    674 : fbab;
    675 : 0a44;
    676 : 0281;
    677 : 01f9;
    678 : 0a91;
    679 : 0061;
    680 : 0a48;
    681 : fff7;
    682 : 01d9;
    683 : fefc;
    684 : fe0f;
    685 : 0401;
    686 : fa1e;
    687 : 0028;
    688 : fad5;
    689 : 029a;
    690 : 0356;
    691 : fcbc;
    692 : fe1d;
    693 : 0188;
    694 : f826;
    695 : fb0d;
    696 : f796;
    697 : fbe2;
    698 : 03ed;
    699 : fea8;
    700 : fc7e;
    701 : 025f;
    702 : f6fa;
    703 : 0014;
    704 : f4d3;
    705 : fe59;
    706 : 0379;
    707 : 014a;
    708 : fce1;
    709 : 0276;
    710 : f905;
    711 : fe5b;
    712 : f3ed;
    713 : fd3a;
    714 : 0269;
    715 : ff62;
    716 : 02f5;
    717 : 0946;
    718 : 0296;
    719 : 06f4;
    720 : 002a;
    721 : fdcd;
    722 : fe13;
    723 : fa13;
    724 : ff3b;
    725 : 00e7;
    726 : 0000;
    727 : 004f;
    728 : fd03;
    729 : 04b8;
    730 : f985;
    731 : 071e;
    732 : 00fe;
    733 : fdb1;
    734 : ff25;
    735 : 0073;
    736 : 00e0;
    737 : fc00;
    738 : 03fc;
    739 : f738;
    740 : ff33;
    741 : fb17;
    742 : 02dc;
    743 : fe02;
    744 : 00dc;
    745 : 014c;
    746 : 01aa;
    747 : f985;
    748 : fe5a;
    749 : f75d;
    750 : ff9b;
    751 : fdc1;
    752 : 041a;
    753 : 0095;
    754 : 0340;
    755 : fc47;
    756 : feee;
    757 : 01dd;
    758 : f93a;
    759 : fe2b;
    760 : fd66;
    761 : ffcf;
    762 : f7ff;
    763 : 0242;
    764 : f4a4;
    765 : fff8;
    766 : 0142;
    767 : fd98;
    768 : fdb5;
    769 : fbf8;
    770 : ffa6;
    771 : fd54;
    772 : fef8;
    773 : 0305;
    774 : 058d;
    775 : fb93;
    776 : 02a1;
    777 : fa3a;
    778 : 019a;
    779 : f9a9;
    780 : fcf6;
    781 : fe63;
    782 : 0502;
    783 : febf;
    784 : ff2e;
    785 : fb9d;
    786 : fc7f;
    787 : f9c2;
    788 : fb41;
    789 : fc73;
    790 : 0441;
    791 : 0119;
    792 : 042d;
    793 : 0124;
    794 : ff37;
    795 : 0003;
    796 : fd00;
    797 : fe72;
    798 : ff9a;
    799 : ff90;
    800 : 03c4;
    801 : fe6d;
    802 : 0638;
    803 : fc74;
    804 : 032c;
    805 : fff0;
    806 : 0564;
    807 : fda0;
    808 : 020e;
    809 : fda4;
    810 : 0056;
    811 : f877;
    812 : 0298;
    813 : f99c;
    814 : 02db;
    815 : ff3e;
    816 : ff64;
    817 : 004a;
    818 : 0073;
    819 : fb2a;
    820 : 0493;
    821 : fb3b;
    822 : 06d4;
    823 : fb52;
    824 : fe9a;
    825 : ff3a;
    826 : ff05;
    827 : fa9b;
    828 : 0141;
    829 : fa43;
    830 : 054f;
    831 : f651;
    832 : fe38;
    833 : 0037;
    834 : fd64;
    835 : ffdc;
    836 : 0323;
    837 : fc5c;
    838 : 064c;
    839 : f8ec;
    840 : ff8e;
    841 : 019d;
    842 : 0495;
    843 : 004e;
    844 : 0089;
    845 : ff1c;
    846 : fc69;
    847 : 082b;
    848 : f2e5;
    849 : 0b7e;
    850 : 0155;
    851 : 00cb;
    852 : 0106;
    853 : ff88;
    854 : 025e;
    855 : fe0f;
    856 : ff89;
    857 : ff32;
    858 : 00f7;
    859 : fe33;
    860 : 040e;
    861 : 0239;
    862 : 02f2;
    863 : fe3b;
    864 : 03d6;
    865 : fc7f;
    866 : fced;
    867 : fff6;
    868 : 0417;
    869 : fe2e;
    870 : 07ad;
    871 : fa15;
    872 : 05cf;
    873 : f8b8;
    874 : f9fa;
    875 : 01e2;
    876 : 04c3;
    877 : 01e9;
    878 : 02ce;
    879 : fdb9;
    880 : 023f;
    881 : f981;
    882 : fe34;
    883 : 0251;
    884 : fd05;
    885 : 085b;
    886 : 04d1;
    887 : 041d;
    888 : 067a;
    889 : 03c2;
    890 : 03bc;
    891 : 035d;
    892 : 0b75;
    893 : 035c;
    894 : 03f7;
    895 : 00c7;
    896 : f9d3;
    897 : ff22;
    898 : f8da;
    899 : ffc5;
    900 : 0c00;
    901 : 01b9;
    902 : 0735;
    903 : fee2;
    904 : fc96;
    905 : ffae;
    906 : f4f6;
    907 : ff0e;
    908 : 0951;
    909 : fd38;
    910 : 056e;
    911 : fd45;
    912 : fdb1;
    913 : feb0;
    914 : fca5;
    915 : fed8;
    916 : 07f4;
    917 : fcb8;
    918 : 05a2;
    919 : ff19;
    920 : 0019;
    921 : fed4;
    922 : fad9;
    923 : 03b5;
    924 : 0194;
    925 : fdc4;
    926 : fe79;
    927 : fdd9;
    928 : fe11;
    929 : 0203;
    930 : fe48;
    931 : ff7e;
    932 : fb39;
    933 : 039a;
    934 : 0777;
    935 : 03fd;
    936 : 03c3;
    937 : fc53;
    938 : 0338;
    939 : f599;
    940 : 0278;
    941 : f5d9;
    942 : 0431;
    943 : 0228;
    944 : ffb5;
    945 : fc48;
    946 : fc5c;
    947 : f650;
    948 : fe28;
    949 : fbc2;
    950 : 0286;
    951 : 0128;
    952 : fcd8;
    953 : fcd6;
    954 : ff23;
    955 : fdfc;
    956 : fd44;
    957 : 007a;
    958 : 0368;
    959 : 0440;
    960 : fd79;
    961 : 026f;
    962 : 0122;
    963 : fc9d;
    964 : fc70;
    965 : 020a;
    966 : 01dc;
    967 : fe7f;
    968 : fdc6;
    969 : 0746;
    970 : fb55;
    971 : 08aa;
    972 : fd8b;
    973 : 061e;
    974 : 0035;
    975 : 00a0;
    976 : fb6b;
    977 : 07a7;
    978 : f9b2;
    979 : 07fc;
    980 : ffb6;
    981 : 0036;
    982 : 0418;
    983 : fb68;
    984 : fd71;
    985 : 0534;
    986 : fa89;
    987 : 05e5;
    988 : fe0c;
    989 : 0349;
    990 : 003d;
    991 : 0089;
    992 : ffb1;
    993 : 0376;
    994 : fe1c;
    995 : 00c2;
    996 : fd6a;
    997 : fcfa;
    998 : fd0d;
    999 : fcf6;
    1000 : 027a;
    1001 : fd35;
    1002 : fd35;
    1003 : fae5;
    1004 : fce4;
    1005 : fc71;
    1006 : fcfe;
    1007 : f853;
    1008 : ff66;
    1009 : ff53;
    1010 : fdf6;
    1011 : fe9c;
    1012 : 00a8;
    1013 : fc6a;
    1014 : 005f;
    1015 : ff7e;
    1016 : 0868;
    1017 : fc7d;
    1018 : f3b9;
    1019 : fe52;
    1020 : fc9c;
    1021 : 0114;
    1022 : fc9c;
    1023 : 0290;
    1024 : fe24;
    1025 : f98a;
    1026 : f684;
    1027 : 0240;
    1028 : fc30;
    1029 : 0ade;
    1030 : ffac;
    1031 : 06dd;
    1032 : fc08;
    1033 : 0235;
    1034 : fa38;
    1035 : 0390;
    1036 : fe1f;
    1037 : 086f;
    1038 : fff0;
    1039 : 054c;
    1040 : 00bb;
    1041 : 04d5;
    1042 : fcbb;
    1043 : 00e1;
    1044 : 023f;
    1045 : 020f;
    1046 : 050c;
    1047 : 0025;
    1048 : 0215;
    1049 : 003e;
    1050 : ff89;
    1051 : fee9;
    1052 : f982;
    1053 : 0583;
    1054 : fadc;
    1055 : 00f2;
    1056 : 0090;
    1057 : 03ee;
    1058 : 0098;
    1059 : 01a3;
    1060 : 01f8;
    1061 : 0934;
    1062 : 01c5;
    1063 : 07e7;
    1064 : ff81;
    1065 : fae9;
    1066 : 001f;
    1067 : f4c0;
    1068 : 0617;
    1069 : 0692;
    1070 : 0190;
    1071 : 026d;
    1072 : 0399;
    1073 : f870;
    1074 : 059f;
    1075 : f61c;
    1076 : 025b;
    1077 : 019e;
    1078 : 002b;
    1079 : 01e9;
    1080 : fdda;
    1081 : faa9;
    1082 : fdc0;
    1083 : fc67;
    1084 : 0330;
    1085 : 0180;
    1086 : fd9e;
    1087 : ff95;
    1088 : fb72;
    1089 : fa30;
    1090 : fa66;
    1091 : fe46;
    1092 : ff03;
    1093 : 0189;
    1094 : 00b7;
    1095 : 027a;
    1096 : ff95;
    1097 : ff97;
    1098 : fed4;
    1099 : fce8;
    1100 : 03f1;
    1101 : fa60;
    1102 : 02a6;
    1103 : 03b9;
    1104 : ff25;
    1105 : 012f;
    1106 : fe39;
    1107 : fe5a;
    1108 : 0269;
    1109 : 00c5;
    1110 : fe68;
    1111 : fe1b;
    1112 : fe4f;
    1113 : fe8b;
    1114 : fc4f;
    1115 : fbb1;
    1116 : 00f1;
    1117 : fcd9;
    1118 : fc40;
    1119 : fe9b;
    1120 : fd47;
    1121 : fc63;
    1122 : fdde;
    1123 : 019e;
    1124 : 020f;
    1125 : 03e1;
    1126 : fca5;
    1127 : fcdc;
    1128 : fe63;
    1129 : fc91;
    1130 : fd8b;
    1131 : 0154;
    1132 : 0498;
    1133 : 036b;
    1134 : ff57;
    1135 : fecf;
    1136 : 0248;
    1137 : 003a;
    1138 : 0350;
    1139 : f8e0;
    1140 : 00f4;
    1141 : f9e5;
    1142 : fba7;
    1143 : f5f5;
    1144 : 0014;
    1145 : f98f;
    1146 : 0173;
    1147 : 01c6;
    1148 : 01a9;
    1149 : 02bc;
    1150 : 0163;
    1151 : ffa0;
    1152 : fb08;
    1153 : fd13;
    1154 : 0259;
    1155 : 025e;
    1156 : ff88;
    1157 : 081e;
    1158 : 0042;
    1159 : 0294;
    1160 : fa42;
    1161 : fca5;
    1162 : 00ba;
    1163 : 043b;
    1164 : 047d;
    1165 : 0261;
    1166 : 042e;
    1167 : 00fa;
    1168 : fca5;
    1169 : fbe3;
    1170 : ffb5;
    1171 : 028f;
    1172 : feae;
    1173 : 0277;
    1174 : ff4f;
    1175 : 0397;
    1176 : 00ac;
    1177 : 0013;
    1178 : 038b;
    1179 : f864;
    1180 : 0413;
    1181 : f5fc;
    1182 : 044e;
    1183 : f4f4;
    1184 : fdaf;
    1185 : f7d6;
    1186 : fcc1;
    1187 : fb46;
    1188 : 0002;
    1189 : f9de;
    1190 : fdb4;
    1191 : 04d8;
    1192 : fd75;
    1193 : 081e;
    1194 : fefc;
    1195 : fb05;
    1196 : 0015;
    1197 : fd9f;
    1198 : ff1b;
    1199 : 01bc;
    1200 : fea6;
    1201 : 01a4;
    1202 : 027d;
    1203 : fccb;
    1204 : ff40;
    1205 : fdf6;
    1206 : fe1b;
    1207 : 01f9;
    1208 : fe6f;
    1209 : f8f3;
    1210 : 004c;
    1211 : febd;
    1212 : 01f5;
    1213 : fc98;
    1214 : fe66;
    1215 : fdeb;
    1216 : 01ed;
    1217 : fe7a;
    1218 : fe77;
    1219 : 009d;
    1220 : fd38;
    1221 : 018f;
    1222 : fa27;
    1223 : 040b;
    1224 : fad2;
    1225 : 05d6;
    1226 : fb97;
    1227 : 05ac;
    1228 : ffc9;
    1229 : 0143;
    1230 : 01a4;
    1231 : fca3;
    1232 : 0259;
    1233 : f5f9;
    1234 : 0879;
    1235 : f821;
    1236 : ff00;
    1237 : 00b4;
    1238 : 0052;
    1239 : f9a5;
    1240 : fe5e;
    1241 : fcf5;
    1242 : 0242;
    1243 : ff27;
    1244 : fcd3;
    1245 : fd22;
    1246 : fba9;
    1247 : fd5f;
    1248 : 01b6;
    1249 : 011b;
    1250 : 0341;
    1251 : 0b51;
    1252 : ff6a;
    1253 : fe27;
    1254 : fff4;
    1255 : 019a;
    1256 : 0265;
    1257 : ff24;
    1258 : 0352;
    1259 : 086d;
    1260 : fdb4;
    1261 : 0042;
    1262 : 041d;
    1263 : f9db;
    1264 : 00c4;
    1265 : 026d;
    1266 : 0003;
    1267 : 0c58;
    1268 : fc40;
    1269 : 126b;
    1270 : fbfb;
    1271 : ff40;
    1272 : fd8e;
    1273 : fb79;
    1274 : 01aa;
    1275 : ffe0;
    1276 : 04b2;
    1277 : 046d;
    1278 : fce3;
    1279 : 0053;
    1280 : fe77;
    1281 : fc78;
    1282 : 0132;
    1283 : 004c;
    1284 : 0134;
    1285 : ffaa;
    1286 : fa3d;
    1287 : 0145;
    1288 : 00f9;
    1289 : f99b;
    1290 : 02da;
    1291 : fcef;
    1292 : fef2;
    1293 : f994;
    1294 : f92c;
    1295 : fd54;
    1296 : 0299;
    1297 : fbdc;
    1298 : 03e9;
    1299 : faf0;
    1300 : 00d4;
    1301 : faf1;
    1302 : 0145;
    1303 : 0200;
    1304 : fed1;
    1305 : 03e1;
    1306 : fa2d;
    1307 : 00ff;
    1308 : fb7d;
    1309 : feff;
    1310 : 0854;
    1311 : fd94;
    1312 : fbd3;
    1313 : fe07;
    1314 : ff71;
    1315 : fedd;
    1316 : fce9;
    1317 : f934;
    1318 : 03b4;
    1319 : fb24;
    1320 : fa09;
    1321 : fe4f;
    1322 : fbe4;
    1323 : fb38;
    1324 : fb70;
    1325 : ff7e;
    1326 : 003f;
    1327 : fde9;
    1328 : f976;
    1329 : fbff;
    1330 : fa85;
    1331 : fbd6;
    1332 : 01be;
    1333 : 03a1;
    1334 : 03d2;
    1335 : 05be;
    1336 : fd36;
    1337 : fca2;
    1338 : fc96;
    1339 : ff8d;
    1340 : fe26;
    1341 : 02e9;
    1342 : 04f0;
    1343 : 0706;
    1344 : fd34;
    1345 : 0338;
    1346 : 001d;
    1347 : feb0;
    1348 : 0271;
    1349 : 050c;
    1350 : fcde;
    1351 : 07bb;
    1352 : 0023;
    1353 : 039d;
    1354 : 040e;
    1355 : 03f0;
    1356 : fb9f;
    1357 : fc1f;
    1358 : ff2d;
    1359 : ff76;
    1360 : 00d7;
    1361 : 035b;
    1362 : fca9;
    1363 : 00ca;
    1364 : ffae;
    1365 : 03cf;
    1366 : ff89;
    1367 : ffc2;
    1368 : 013c;
    1369 : ffcd;
    1370 : fdb9;
    1371 : 03ab;
    1372 : fc31;
    1373 : 037e;
    1374 : ffb1;
    1375 : 0319;
END;
