WIDTH=16;
DEPTH=165;
ADDRESS_RADIX=DEC;
DATA_RADIX=HEX;
CONTENT BEGIN
    0 : fa4a;
    1 : 05d7;
    2 : 0606;
    3 : 0a18;
    4 : 0698;
    5 : e30a;
    6 : ef9c;
    7 : 08c8;
    8 : 0772;
    9 : 0405;
    10 : ed49;
    11 : fb42;
    12 : f76b;
    13 : 0cb6;
    14 : 02a4;
    15 : 07a1;
    16 : fec5;
    17 : fc16;
    18 : 02e3;
    19 : 003f;
    20 : 0055;
    21 : 0a4f;
    22 : 0af3;
    23 : f9d2;
    24 : f952;
    25 : fa0f;
    26 : 05ab;
    27 : 027e;
    28 : 0a82;
    29 : 07da;
    30 : 007f;
    31 : fea8;
    32 : 0afd;
    33 : f835;
    34 : f914;
    35 : 0873;
    36 : e371;
    37 : 06b9;
    38 : 1020;
    39 : f8b2;
    40 : e6c2;
    41 : eee8;
    42 : 0cbf;
    43 : f33a;
    44 : 0b3a;
    45 : ee43;
    46 : f543;
    47 : ec3e;
    48 : 006f;
    49 : fe54;
    50 : eccf;
    51 : fe9a;
    52 : 0182;
    53 : e34f;
    54 : 07f7;
    55 : 055e;
    56 : ffce;
    57 : f3f4;
    58 : f8f5;
    59 : f801;
    60 : 06b5;
    61 : 0a26;
    62 : ef68;
    63 : f45c;
    64 : 0353;
    65 : 0420;
    66 : f1c0;
    67 : fd07;
    68 : 038b;
    69 : 07c7;
    70 : f6d3;
    71 : 0508;
    72 : f9e6;
    73 : 001d;
    74 : 037a;
    75 : 0b99;
    76 : fd6f;
    77 : 02de;
    78 : 0659;
    79 : 0df6;
    80 : 085b;
    81 : 0942;
    82 : f59e;
    83 : fe8b;
    84 : 073c;
    85 : 129d;
    86 : fcef;
    87 : ecd3;
    88 : 0537;
    89 : 06ca;
    90 : f21e;
    91 : f30f;
    92 : 02f4;
    93 : e6cc;
    94 : 067b;
    95 : f36d;
    96 : fe85;
    97 : 03f8;
    98 : 06f7;
    99 : fbac;
    100 : 06a9;
    101 : 1212;
    102 : 08d3;
    103 : ef65;
    104 : fee9;
    105 : 0802;
    106 : 02bd;
    107 : f5da;
    108 : f677;
    109 : f4a1;
    110 : ec97;
    111 : fb7c;
    112 : f156;
    113 : eea2;
    114 : 04e2;
    115 : 0d0f;
    116 : e905;
    117 : e492;
    118 : f7f4;
    119 : f791;
    120 : efbb;
    121 : fe88;
    122 : 0a27;
    123 : 08e1;
    124 : e6cf;
    125 : f856;
    126 : fd9d;
    127 : 0735;
    128 : f69b;
    129 : f2d0;
    130 : 035b;
    131 : efb4;
    132 : f48a;
    133 : 039c;
    134 : f803;
    135 : fd2c;
    136 : 01d5;
    137 : efeb;
    138 : f796;
    139 : 034d;
    140 : 063c;
    141 : 0305;
    142 : 05e1;
    143 : eae7;
    144 : fd1f;
    145 : 042f;
    146 : 044d;
    147 : ea62;
    148 : faab;
    149 : fa09;
    150 : f4fd;
    151 : 176f;
    152 : 05b3;
    153 : 07f9;
    154 : ff25;
    155 : 0418;
    156 : f826;
    157 : 0e05;
    158 : 068a;
    159 : 0327;
    160 : f93a;
    161 : 0073;
    162 : fd56;
    163 : 047e;
    164 : 0542;
END;
