fa4a
05d7
0606
0a18
0698
e30a
ef9c
08c8
0772
0405
ed49
fb42
f76b
0cb6
02a4
07a1
fec5
fc16
02e3
003f
0055
0a4f
0af3
f9d2
f952
fa0f
05ab
027e
0a82
07da
007f
fea8
0afd
f835
f914
0873
e371
06b9
1020
f8b2
e6c2
eee8
0cbf
f33a
0b3a
ee43
f543
ec3e
006f
fe54
eccf
fe9a
0182
e34f
07f7
055e
ffce
f3f4
f8f5
f801
06b5
0a26
ef68
f45c
0353
0420
f1c0
fd07
038b
07c7
f6d3
0508
f9e6
001d
037a
0b99
fd6f
02de
0659
0df6
085b
0942
f59e
fe8b
073c
129d
fcef
ecd3
0537
06ca
f21e
f30f
02f4
e6cc
067b
f36d
fe85
03f8
06f7
fbac
06a9
1212
08d3
ef65
fee9
0802
02bd
f5da
f677
f4a1
ec97
fb7c
f156
eea2
04e2
0d0f
e905
e492
f7f4
f791
efbb
fe88
0a27
08e1
e6cf
f856
fd9d
0735
f69b
f2d0
035b
efb4
f48a
039c
f803
fd2c
01d5
efeb
f796
034d
063c
0305
05e1
eae7
fd1f
042f
044d
ea62
faab
fa09
f4fd
176f
05b3
07f9
ff25
0418
f826
0e05
068a
0327
f93a
0073
fd56
047e
0542
