ff92
01f1
f650
04ce
01c8
fcc2
020a
fb38
0a70
082b
fe8a
fba4
fc80
0703
ff0f
0cae
09b3
0d25
0852
002c
0b7f
f7c4
00ed
fe38
feb3
04cc
fe3b
fa40
016e
00f2
0a26
fdc0
0829
f943
01b8
021c
05a8
080b
0a19
0150
069a
f98a
fdbf
ffa8
0307
0dfa
fc2d
fb52
fcf0
0a3a
01a7
0336
fe7d
0750
fb86
03dc
0308
fa34
ff7d
fef6
0457
fa84
044c
038a
0376
fae0
07c4
fa9f
04aa
0528
fdfd
035b
fc5b
f64e
0490
06f1
06d3
f4a4
f793
f769
fd26
ff68
0147
05ba
fff4
0aeb
ffcc
0656
06f5
f2fa
0499
0416
080d
fb04
03e5
0417
0360
0445
002b
ff02
fb26
fc27
02a2
fd16
07c3
fcac
fbc6
f9ce
0592
090f
0461
0640
0545
03a9
0412
0524
fe98
005f
fcd4
08dd
06b9
f904
02dc
fd97
04b1
f499
fb23
fd6b
0884
f821
0268
ff69
0581
0bc9
048e
0074
0186
f8ad
ff38
ff31
03d6
0cef
fe89
f95b
015b
06c7
fc80
0144
ffdb
0dd7
f87c
047b
0192
f4cf
01f0
01b2
079f
fc59
037c
fe79
f6e8
05a2
ffdc
0462
006e
05a6
00d3
01c1
0392
0d6e
0252
0323
fd39
054d
e175
0546
107b
030e
fc36
ffba
ff7f
fc86
f69d
fcc4
ff00
00db
ff96
04e6
037d
edd5
fd09
fc78
fd41
034f
f5ce
fbd4
0153
f5af
f794
feca
02fe
fbec
fba4
035c
fe7a
0047
feb7
0c78
01ea
04f0
0432
02df
0ff9
fd7c
0166
fe76
f868
0125
ff15
ff77
0170
067d
0ff2
fb47
0178
fef8
0557
0062
024d
fea5
0451
ffd4
ff3b
0294
ffc0
fd4a
ff40
0354
12de
ff13
fb33
032b
feca
019d
f56c
ff74
ff6e
06d8
08a6
085c
02dd
fdc6
00bc
0499
f918
011b
0727
fab4
02a9
fc54
05b3
0345
0576
05a4
ffed
f754
005d
fbca
070d
fd18
02d3
fa79
f8ef
fd07
00ca
055d
f929
0334
041b
09f2
0c63
f425
0384
005d
ff45
023a
ff66
0655
08c4
fa3c
0426
ffbe
0773
0728
0326
0064
023c
f767
fd23
0586
07a9
0780
f545
f9d9
fda6
04ef
fc99
0163
ff41
0825
f769
0760
02b9
ef1b
ffb1
06ee
07e9
f466
0b02
011b
f8a6
05d4
f4ed
fffe
f915
f7a6
fca7
fd7f
00c3
0584
fd64
fb1e
f4d5
02a1
07a9
0bf8
0197
07c1
04a4
0541
0e88
fa88
04cd
fa3f
00fe
09d0
fcad
fca5
ff4a
08a1
0d4f
f9a0
02ec
017b
fcf7
03f0
fff7
0804
05b7
03c8
01b6
0578
06c7
fcb3
fa75
0c3e
0aff
feae
fc7c
fe94
fa64
fd0c
fc77
fbec
02da
ff48
ff97
07a7
0008
fe26
f72c
0abf
f840
02ed
f68b
09fa
fdcc
02c2
0015
fa7e
f8d4
0442
020c
070e
04c3
00ba
ff44
fcd5
0274
0d6c
03cf
ff7d
0ac9
047d
0d2b
f8c9
076f
fb82
fdff
08b2
027a
fd23
feee
09b0
ff52
06cc
04b5
ff6c
0598
fb7f
0419
044f
0262
fe71
006e
0b3c
002b
fd24
f5e7
036d
0463
faf4
f545
0696
fdbe
03d3
fa2c
043a
ff3b
0710
06fb
fc25
01e1
f705
ff18
fdea
f7e2
0134
ff15
fdea
021c
0011
fd80
0344
ff40
042b
f8bc
05a6
0674
fa05
fedf
038e
1961
fd7b
f56b
fdbf
fcd6
0201
f7c8
fee6
06aa
00be
076d
08ba
0291
fba6
fe93
0c63
f5bf
0739
0949
fe9f
0229
0361
00d4
0425
0923
03f2
fe1a
fdef
fe06
01a5
024c
0b03
0f70
f801
fb8a
09f0
0064
0039
f710
0217
fc79
fca6
0380
fd5f
fec2
fdc2
025b
fee5
0191
fe92
fe7d
fea1
fff2
05b6
0029
009d
0292
fe93
0257
0715
0103
fc54
fdc6
080b
11c8
029c
fe60
049f
feca
fff3
f6df
ff54
01a4
fcf6
0236
0a65
0144
ffa4
fcbf
072c
fb78
0319
fe7f
0146
fda9
052f
fe81
02d2
0264
04f0
0119
0ae4
037a
f864
fc61
04bc
152b
02f9
fe39
01c2
fc03
fe9b
fa97
fd70
054b
fd7a
0123
11fe
0243
ffac
fcf8
0ad2
f55a
0498
0778
fa04
0718
fccf
0699
023f
0007
06a2
00e1
f927
017a
02a4
06f3
f352
f722
f86f
fc07
fad1
fec8
03a8
0384
0b32
02df
049d
0a23
fadd
037f
ffaf
0137
ff7b
032b
0559
0946
f99a
0400
fd05
05de
0781
008b
fdaa
065d
f75c
fa0d
0913
056e
0349
f204
ff86
0507
02ec
0010
02ed
075d
03c7
f9d6
06b3
01d3
f439
fcbd
087f
0506
f6f1
0fbe
fdf1
fe45
0614
facb
041b
fab3
fbf3
08dc
fc3c
0761
0099
00bc
fa68
018f
08e1
0f40
0a6d
0018
0195
ff23
00b3
f978
fc90
032a
ffd0
ff48
0a35
0420
0271
0044
025f
fb0d
fe7f
002c
0012
fe97
fed4
035d
0880
00e6
fa3c
0033
0fc0
00ae
fa1d
f55c
0a18
035a
0013
fa61
0c74
f8e3
0193
fba8
00eb
ff04
051d
04ff
0365
017d
f666
01f1
fd2a
facd
001a
0094
02f7
00e4
06a7
fc85
fb67
00ad
fde4
0695
fb8a
fa29
f8bf
04d1
05c9
03c7
0793
061a
0538
01bd
0816
f5f1
029f
02c0
0819
079d
0437
0143
fc43
0411
fb83
fd15
fdd1
f53b
0882
0197
f66e
eeb1
0356
00a7
089b
fccd
e4ff
0866
fb49
02b7
f926
efec
0189
0031
f2fe
042c
ff90
0c67
0090
fdbb
063c
ebfa
fb41
06c8
fe4c
f78d
0228
0706
02b5
fc12
03b7
fed3
0195
fc1c
01a7
036f
06b9
0197
0c33
085f
faf4
fd47
ff15
0ed7
048b
ff58
ff3a
fde4
00ab
fb3b
fc04
0940
fb3e
0023
15f5
0084
fc1d
fd24
0e58
f289
06c8
06ab
00bd
fce4
01c1
0224
03cf
05bd
03d8
ffd5
0884
0850
fe9d
0035
ff08
0220
ff2e
fd47
f94f
fbf9
fd16
01da
fefd
0498
fe62
0029
0641
04d7
00c9
f723
0dd6
f887
0390
0238
f981
091c
fc1b
06fc
03e9
0145
03d0
0077
f804
fe38
067e
0740
f974
f556
fb11
00dc
fe1e
04b9
019f
00f1
0afc
fcf0
0640
08ae
f206
fed4
07fa
08b2
fb82
0720
02e4
03a7
fcdb
05b7
fa4f
045d
0770
fd0f
04d3
fcc5
f901
037b
08e4
071e
fb8e
f300
fa97
00aa
fb0d
ff22
03db
0391
07ae
020c
05bf
0693
f329
02fd
06cf
03e9
fc28
0719
0487
fccb
0aa6
f50c
0873
fc02
f7f7
05f0
fabe
0944
fb0f
fd0f
f9db
05f5
07c1
0202
0db4
0609
0270
0673
fffe
05fd
0210
0286
0166
0500
09aa
0419
fb2a
fea7
f947
f8c2
ffb7
00fe
01de
04d3
f904
0530
0451
f9d7
0809
f8fc
055f
04da
fca4
ffb8
fb3c
033f
fb75
fda5
049f
03f4
f83a
f6a1
0534
fffa
0896
0219
fbdf
0194
fa30
f1d4
00a0
0042
03a3
076d
020b
01d8
ffae
02bf
04e4
0716
0836
ff7f
0435
05fd
f80d
02cb
017f
06bb
fb7c
fbb7
fb50
fae2
ff2f
fe65
04ed
0523
03c1
0350
042a
0416
fb72
f9db
0893
f72b
0342
065b
fdfe
0462
fbc3
0746
04d3
fda4
068a
fcf0
f732
0639
074c
080d
f9dc
f14c
f84c
00cf
faec
00bd
ff0a
0451
0922
008b
02a7
013a
f804
01c3
031f
0668
ffc6
04e1
00d9
0437
0040
ff0f
fd5f
fd6c
04ce
01c6
fb2c
fc43
fe88
011c
061c
0573
fd95
01d5
faf0
ff06
0414
fe0d
02c8
001d
fffe
fa72
096d
05bc
0523
ff17
01e0
fd56
0595
015e
04b7
