WIDTH=16;
DEPTH=1056;
ADDRESS_RADIX=DEC;
DATA_RADIX=HEX;
CONTENT BEGIN
    0 : ff92;
    1 : 01f1;
    2 : f650;
    3 : 04ce;
    4 : 01c8;
    5 : fcc2;
    6 : 020a;
    7 : fb38;
    8 : 0a70;
    9 : 082b;
    10 : fe8a;
    11 : fba4;
    12 : fc80;
    13 : 0703;
    14 : ff0f;
    15 : 0cae;
    16 : 09b3;
    17 : 0d25;
    18 : 0852;
    19 : 002c;
    20 : 0b7f;
    21 : f7c4;
    22 : 00ed;
    23 : fe38;
    24 : feb3;
    25 : 04cc;
    26 : fe3b;
    27 : fa40;
    28 : 016e;
    29 : 00f2;
    30 : 0a26;
    31 : fdc0;
    32 : 0829;
    33 : f943;
    34 : 01b8;
    35 : 021c;
    36 : 05a8;
    37 : 080b;
    38 : 0a19;
    39 : 0150;
    40 : 069a;
    41 : f98a;
    42 : fdbf;
    43 : ffa8;
    44 : 0307;
    45 : 0dfa;
    46 : fc2d;
    47 : fb52;
    48 : fcf0;
    49 : 0a3a;
    50 : 01a7;
    51 : 0336;
    52 : fe7d;
    53 : 0750;
    54 : fb86;
    55 : 03dc;
    56 : 0308;
    57 : fa34;
    58 : ff7d;
    59 : fef6;
    60 : 0457;
    61 : fa84;
    62 : 044c;
    63 : 038a;
    64 : 0376;
    65 : fae0;
    66 : 07c4;
    67 : fa9f;
    68 : 04aa;
    69 : 0528;
    70 : fdfd;
    71 : 035b;
    72 : fc5b;
    73 : f64e;
    74 : 0490;
    75 : 06f1;
    76 : 06d3;
    77 : f4a4;
    78 : f793;
    79 : f769;
    80 : fd26;
    81 : ff68;
    82 : 0147;
    83 : 05ba;
    84 : fff4;
    85 : 0aeb;
    86 : ffcc;
    87 : 0656;
    88 : 06f5;
    89 : f2fa;
    90 : 0499;
    91 : 0416;
    92 : 080d;
    93 : fb04;
    94 : 03e5;
    95 : 0417;
    96 : 0360;
    97 : 0445;
    98 : 002b;
    99 : ff02;
    100 : fb26;
    101 : fc27;
    102 : 02a2;
    103 : fd16;
    104 : 07c3;
    105 : fcac;
    106 : fbc6;
    107 : f9ce;
    108 : 0592;
    109 : 090f;
    110 : 0461;
    111 : 0640;
    112 : 0545;
    113 : 03a9;
    114 : 0412;
    115 : 0524;
    116 : fe98;
    117 : 005f;
    118 : fcd4;
    119 : 08dd;
    120 : 06b9;
    121 : f904;
    122 : 02dc;
    123 : fd97;
    124 : 04b1;
    125 : f499;
    126 : fb23;
    127 : fd6b;
    128 : 0884;
    129 : f821;
    130 : 0268;
    131 : ff69;
    132 : 0581;
    133 : 0bc9;
    134 : 048e;
    135 : 0074;
    136 : 0186;
    137 : f8ad;
    138 : ff38;
    139 : ff31;
    140 : 03d6;
    141 : 0cef;
    142 : fe89;
    143 : f95b;
    144 : 015b;
    145 : 06c7;
    146 : fc80;
    147 : 0144;
    148 : ffdb;
    149 : 0dd7;
    150 : f87c;
    151 : 047b;
    152 : 0192;
    153 : f4cf;
    154 : 01f0;
    155 : 01b2;
    156 : 079f;
    157 : fc59;
    158 : 037c;
    159 : fe79;
    160 : f6e8;
    161 : 05a2;
    162 : ffdc;
    163 : 0462;
    164 : 006e;
    165 : 05a6;
    166 : 00d3;
    167 : 01c1;
    168 : 0392;
    169 : 0d6e;
    170 : 0252;
    171 : 0323;
    172 : fd39;
    173 : 054d;
    174 : e175;
    175 : 0546;
    176 : 107b;
    177 : 030e;
    178 : fc36;
    179 : ffba;
    180 : ff7f;
    181 : fc86;
    182 : f69d;
    183 : fcc4;
    184 : ff00;
    185 : 00db;
    186 : ff96;
    187 : 04e6;
    188 : 037d;
    189 : edd5;
    190 : fd09;
    191 : fc78;
    192 : fd41;
    193 : 034f;
    194 : f5ce;
    195 : fbd4;
    196 : 0153;
    197 : f5af;
    198 : f794;
    199 : feca;
    200 : 02fe;
    201 : fbec;
    202 : fba4;
    203 : 035c;
    204 : fe7a;
    205 : 0047;
    206 : feb7;
    207 : 0c78;
    208 : 01ea;
    209 : 04f0;
    210 : 0432;
    211 : 02df;
    212 : 0ff9;
    213 : fd7c;
    214 : 0166;
    215 : fe76;
    216 : f868;
    217 : 0125;
    218 : ff15;
    219 : ff77;
    220 : 0170;
    221 : 067d;
    222 : 0ff2;
    223 : fb47;
    224 : 0178;
    225 : fef8;
    226 : 0557;
    227 : 0062;
    228 : 024d;
    229 : fea5;
    230 : 0451;
    231 : ffd4;
    232 : ff3b;
    233 : 0294;
    234 : ffc0;
    235 : fd4a;
    236 : ff40;
    237 : 0354;
    238 : 12de;
    239 : ff13;
    240 : fb33;
    241 : 032b;
    242 : feca;
    243 : 019d;
    244 : f56c;
    245 : ff74;
    246 : ff6e;
    247 : 06d8;
    248 : 08a6;
    249 : 085c;
    250 : 02dd;
    251 : fdc6;
    252 : 00bc;
    253 : 0499;
    254 : f918;
    255 : 011b;
    256 : 0727;
    257 : fab4;
    258 : 02a9;
    259 : fc54;
    260 : 05b3;
    261 : 0345;
    262 : 0576;
    263 : 05a4;
    264 : ffed;
    265 : f754;
    266 : 005d;
    267 : fbca;
    268 : 070d;
    269 : fd18;
    270 : 02d3;
    271 : fa79;
    272 : f8ef;
    273 : fd07;
    274 : 00ca;
    275 : 055d;
    276 : f929;
    277 : 0334;
    278 : 041b;
    279 : 09f2;
    280 : 0c63;
    281 : f425;
    282 : 0384;
    283 : 005d;
    284 : ff45;
    285 : 023a;
    286 : ff66;
    287 : 0655;
    288 : 08c4;
    289 : fa3c;
    290 : 0426;
    291 : ffbe;
    292 : 0773;
    293 : 0728;
    294 : 0326;
    295 : 0064;
    296 : 023c;
    297 : f767;
    298 : fd23;
    299 : 0586;
    300 : 07a9;
    301 : 0780;
    302 : f545;
    303 : f9d9;
    304 : fda6;
    305 : 04ef;
    306 : fc99;
    307 : 0163;
    308 : ff41;
    309 : 0825;
    310 : f769;
    311 : 0760;
    312 : 02b9;
    313 : ef1b;
    314 : ffb1;
    315 : 06ee;
    316 : 07e9;
    317 : f466;
    318 : 0b02;
    319 : 011b;
    320 : f8a6;
    321 : 05d4;
    322 : f4ed;
    323 : fffe;
    324 : f915;
    325 : f7a6;
    326 : fca7;
    327 : fd7f;
    328 : 00c3;
    329 : 0584;
    330 : fd64;
    331 : fb1e;
    332 : f4d5;
    333 : 02a1;
    334 : 07a9;
    335 : 0bf8;
    336 : 0197;
    337 : 07c1;
    338 : 04a4;
    339 : 0541;
    340 : 0e88;
    341 : fa88;
    342 : 04cd;
    343 : fa3f;
    344 : 00fe;
    345 : 09d0;
    346 : fcad;
    347 : fca5;
    348 : ff4a;
    349 : 08a1;
    350 : 0d4f;
    351 : f9a0;
    352 : 02ec;
    353 : 017b;
    354 : fcf7;
    355 : 03f0;
    356 : fff7;
    357 : 0804;
    358 : 05b7;
    359 : 03c8;
    360 : 01b6;
    361 : 0578;
    362 : 06c7;
    363 : fcb3;
    364 : fa75;
    365 : 0c3e;
    366 : 0aff;
    367 : feae;
    368 : fc7c;
    369 : fe94;
    370 : fa64;
    371 : fd0c;
    372 : fc77;
    373 : fbec;
    374 : 02da;
    375 : ff48;
    376 : ff97;
    377 : 07a7;
    378 : 0008;
    379 : fe26;
    380 : f72c;
    381 : 0abf;
    382 : f840;
    383 : 02ed;
    384 : f68b;
    385 : 09fa;
    386 : fdcc;
    387 : 02c2;
    388 : 0015;
    389 : fa7e;
    390 : f8d4;
    391 : 0442;
    392 : 020c;
    393 : 070e;
    394 : 04c3;
    395 : 00ba;
    396 : ff44;
    397 : fcd5;
    398 : 0274;
    399 : 0d6c;
    400 : 03cf;
    401 : ff7d;
    402 : 0ac9;
    403 : 047d;
    404 : 0d2b;
    405 : f8c9;
    406 : 076f;
    407 : fb82;
    408 : fdff;
    409 : 08b2;
    410 : 027a;
    411 : fd23;
    412 : feee;
    413 : 09b0;
    414 : ff52;
    415 : 06cc;
    416 : 04b5;
    417 : ff6c;
    418 : 0598;
    419 : fb7f;
    420 : 0419;
    421 : 044f;
    422 : 0262;
    423 : fe71;
    424 : 006e;
    425 : 0b3c;
    426 : 002b;
    427 : fd24;
    428 : f5e7;
    429 : 036d;
    430 : 0463;
    431 : faf4;
    432 : f545;
    433 : 0696;
    434 : fdbe;
    435 : 03d3;
    436 : fa2c;
    437 : 043a;
    438 : ff3b;
    439 : 0710;
    440 : 06fb;
    441 : fc25;
    442 : 01e1;
    443 : f705;
    444 : ff18;
    445 : fdea;
    446 : f7e2;
    447 : 0134;
    448 : ff15;
    449 : fdea;
    450 : 021c;
    451 : 0011;
    452 : fd80;
    453 : 0344;
    454 : ff40;
    455 : 042b;
    456 : f8bc;
    457 : 05a6;
    458 : 0674;
    459 : fa05;
    460 : fedf;
    461 : 038e;
    462 : 1961;
    463 : fd7b;
    464 : f56b;
    465 : fdbf;
    466 : fcd6;
    467 : 0201;
    468 : f7c8;
    469 : fee6;
    470 : 06aa;
    471 : 00be;
    472 : 076d;
    473 : 08ba;
    474 : 0291;
    475 : fba6;
    476 : fe93;
    477 : 0c63;
    478 : f5bf;
    479 : 0739;
    480 : 0949;
    481 : fe9f;
    482 : 0229;
    483 : 0361;
    484 : 00d4;
    485 : 0425;
    486 : 0923;
    487 : 03f2;
    488 : fe1a;
    489 : fdef;
    490 : fe06;
    491 : 01a5;
    492 : 024c;
    493 : 0b03;
    494 : 0f70;
    495 : f801;
    496 : fb8a;
    497 : 09f0;
    498 : 0064;
    499 : 0039;
    500 : f710;
    501 : 0217;
    502 : fc79;
    503 : fca6;
    504 : 0380;
    505 : fd5f;
    506 : fec2;
    507 : fdc2;
    508 : 025b;
    509 : fee5;
    510 : 0191;
    511 : fe92;
    512 : fe7d;
    513 : fea1;
    514 : fff2;
    515 : 05b6;
    516 : 0029;
    517 : 009d;
    518 : 0292;
    519 : fe93;
    520 : 0257;
    521 : 0715;
    522 : 0103;
    523 : fc54;
    524 : fdc6;
    525 : 080b;
    526 : 11c8;
    527 : 029c;
    528 : fe60;
    529 : 049f;
    530 : feca;
    531 : fff3;
    532 : f6df;
    533 : ff54;
    534 : 01a4;
    535 : fcf6;
    536 : 0236;
    537 : 0a65;
    538 : 0144;
    539 : ffa4;
    540 : fcbf;
    541 : 072c;
    542 : fb78;
    543 : 0319;
    544 : fe7f;
    545 : 0146;
    546 : fda9;
    547 : 052f;
    548 : fe81;
    549 : 02d2;
    550 : 0264;
    551 : 04f0;
    552 : 0119;
    553 : 0ae4;
    554 : 037a;
    555 : f864;
    556 : fc61;
    557 : 04bc;
    558 : 152b;
    559 : 02f9;
    560 : fe39;
    561 : 01c2;
    562 : fc03;
    563 : fe9b;
    564 : fa97;
    565 : fd70;
    566 : 054b;
    567 : fd7a;
    568 : 0123;
    569 : 11fe;
    570 : 0243;
    571 : ffac;
    572 : fcf8;
    573 : 0ad2;
    574 : f55a;
    575 : 0498;
    576 : 0778;
    577 : fa04;
    578 : 0718;
    579 : fccf;
    580 : 0699;
    581 : 023f;
    582 : 0007;
    583 : 06a2;
    584 : 00e1;
    585 : f927;
    586 : 017a;
    587 : 02a4;
    588 : 06f3;
    589 : f352;
    590 : f722;
    591 : f86f;
    592 : fc07;
    593 : fad1;
    594 : fec8;
    595 : 03a8;
    596 : 0384;
    597 : 0b32;
    598 : 02df;
    599 : 049d;
    600 : 0a23;
    601 : fadd;
    602 : 037f;
    603 : ffaf;
    604 : 0137;
    605 : ff7b;
    606 : 032b;
    607 : 0559;
    608 : 0946;
    609 : f99a;
    610 : 0400;
    611 : fd05;
    612 : 05de;
    613 : 0781;
    614 : 008b;
    615 : fdaa;
    616 : 065d;
    617 : f75c;
    618 : fa0d;
    619 : 0913;
    620 : 056e;
    621 : 0349;
    622 : f204;
    623 : ff86;
    624 : 0507;
    625 : 02ec;
    626 : 0010;
    627 : 02ed;
    628 : 075d;
    629 : 03c7;
    630 : f9d6;
    631 : 06b3;
    632 : 01d3;
    633 : f439;
    634 : fcbd;
    635 : 087f;
    636 : 0506;
    637 : f6f1;
    638 : 0fbe;
    639 : fdf1;
    640 : fe45;
    641 : 0614;
    642 : facb;
    643 : 041b;
    644 : fab3;
    645 : fbf3;
    646 : 08dc;
    647 : fc3c;
    648 : 0761;
    649 : 0099;
    650 : 00bc;
    651 : fa68;
    652 : 018f;
    653 : 08e1;
    654 : 0f40;
    655 : 0a6d;
    656 : 0018;
    657 : 0195;
    658 : ff23;
    659 : 00b3;
    660 : f978;
    661 : fc90;
    662 : 032a;
    663 : ffd0;
    664 : ff48;
    665 : 0a35;
    666 : 0420;
    667 : 0271;
    668 : 0044;
    669 : 025f;
    670 : fb0d;
    671 : fe7f;
    672 : 002c;
    673 : 0012;
    674 : fe97;
    675 : fed4;
    676 : 035d;
    677 : 0880;
    678 : 00e6;
    679 : fa3c;
    680 : 0033;
    681 : 0fc0;
    682 : 00ae;
    683 : fa1d;
    684 : f55c;
    685 : 0a18;
    686 : 035a;
    687 : 0013;
    688 : fa61;
    689 : 0c74;
    690 : f8e3;
    691 : 0193;
    692 : fba8;
    693 : 00eb;
    694 : ff04;
    695 : 051d;
    696 : 04ff;
    697 : 0365;
    698 : 017d;
    699 : f666;
    700 : 01f1;
    701 : fd2a;
    702 : facd;
    703 : 001a;
    704 : 0094;
    705 : 02f7;
    706 : 00e4;
    707 : 06a7;
    708 : fc85;
    709 : fb67;
    710 : 00ad;
    711 : fde4;
    712 : 0695;
    713 : fb8a;
    714 : fa29;
    715 : f8bf;
    716 : 04d1;
    717 : 05c9;
    718 : 03c7;
    719 : 0793;
    720 : 061a;
    721 : 0538;
    722 : 01bd;
    723 : 0816;
    724 : f5f1;
    725 : 029f;
    726 : 02c0;
    727 : 0819;
    728 : 079d;
    729 : 0437;
    730 : 0143;
    731 : fc43;
    732 : 0411;
    733 : fb83;
    734 : fd15;
    735 : fdd1;
    736 : f53b;
    737 : 0882;
    738 : 0197;
    739 : f66e;
    740 : eeb1;
    741 : 0356;
    742 : 00a7;
    743 : 089b;
    744 : fccd;
    745 : e4ff;
    746 : 0866;
    747 : fb49;
    748 : 02b7;
    749 : f926;
    750 : efec;
    751 : 0189;
    752 : 0031;
    753 : f2fe;
    754 : 042c;
    755 : ff90;
    756 : 0c67;
    757 : 0090;
    758 : fdbb;
    759 : 063c;
    760 : ebfa;
    761 : fb41;
    762 : 06c8;
    763 : fe4c;
    764 : f78d;
    765 : 0228;
    766 : 0706;
    767 : 02b5;
    768 : fc12;
    769 : 03b7;
    770 : fed3;
    771 : 0195;
    772 : fc1c;
    773 : 01a7;
    774 : 036f;
    775 : 06b9;
    776 : 0197;
    777 : 0c33;
    778 : 085f;
    779 : faf4;
    780 : fd47;
    781 : ff15;
    782 : 0ed7;
    783 : 048b;
    784 : ff58;
    785 : ff3a;
    786 : fde4;
    787 : 00ab;
    788 : fb3b;
    789 : fc04;
    790 : 0940;
    791 : fb3e;
    792 : 0023;
    793 : 15f5;
    794 : 0084;
    795 : fc1d;
    796 : fd24;
    797 : 0e58;
    798 : f289;
    799 : 06c8;
    800 : 06ab;
    801 : 00bd;
    802 : fce4;
    803 : 01c1;
    804 : 0224;
    805 : 03cf;
    806 : 05bd;
    807 : 03d8;
    808 : ffd5;
    809 : 0884;
    810 : 0850;
    811 : fe9d;
    812 : 0035;
    813 : ff08;
    814 : 0220;
    815 : ff2e;
    816 : fd47;
    817 : f94f;
    818 : fbf9;
    819 : fd16;
    820 : 01da;
    821 : fefd;
    822 : 0498;
    823 : fe62;
    824 : 0029;
    825 : 0641;
    826 : 04d7;
    827 : 00c9;
    828 : f723;
    829 : 0dd6;
    830 : f887;
    831 : 0390;
    832 : 0238;
    833 : f981;
    834 : 091c;
    835 : fc1b;
    836 : 06fc;
    837 : 03e9;
    838 : 0145;
    839 : 03d0;
    840 : 0077;
    841 : f804;
    842 : fe38;
    843 : 067e;
    844 : 0740;
    845 : f974;
    846 : f556;
    847 : fb11;
    848 : 00dc;
    849 : fe1e;
    850 : 04b9;
    851 : 019f;
    852 : 00f1;
    853 : 0afc;
    854 : fcf0;
    855 : 0640;
    856 : 08ae;
    857 : f206;
    858 : fed4;
    859 : 07fa;
    860 : 08b2;
    861 : fb82;
    862 : 0720;
    863 : 02e4;
    864 : 03a7;
    865 : fcdb;
    866 : 05b7;
    867 : fa4f;
    868 : 045d;
    869 : 0770;
    870 : fd0f;
    871 : 04d3;
    872 : fcc5;
    873 : f901;
    874 : 037b;
    875 : 08e4;
    876 : 071e;
    877 : fb8e;
    878 : f300;
    879 : fa97;
    880 : 00aa;
    881 : fb0d;
    882 : ff22;
    883 : 03db;
    884 : 0391;
    885 : 07ae;
    886 : 020c;
    887 : 05bf;
    888 : 0693;
    889 : f329;
    890 : 02fd;
    891 : 06cf;
    892 : 03e9;
    893 : fc28;
    894 : 0719;
    895 : 0487;
    896 : fccb;
    897 : 0aa6;
    898 : f50c;
    899 : 0873;
    900 : fc02;
    901 : f7f7;
    902 : 05f0;
    903 : fabe;
    904 : 0944;
    905 : fb0f;
    906 : fd0f;
    907 : f9db;
    908 : 05f5;
    909 : 07c1;
    910 : 0202;
    911 : 0db4;
    912 : 0609;
    913 : 0270;
    914 : 0673;
    915 : fffe;
    916 : 05fd;
    917 : 0210;
    918 : 0286;
    919 : 0166;
    920 : 0500;
    921 : 09aa;
    922 : 0419;
    923 : fb2a;
    924 : fea7;
    925 : f947;
    926 : f8c2;
    927 : ffb7;
    928 : 00fe;
    929 : 01de;
    930 : 04d3;
    931 : f904;
    932 : 0530;
    933 : 0451;
    934 : f9d7;
    935 : 0809;
    936 : f8fc;
    937 : 055f;
    938 : 04da;
    939 : fca4;
    940 : ffb8;
    941 : fb3c;
    942 : 033f;
    943 : fb75;
    944 : fda5;
    945 : 049f;
    946 : 03f4;
    947 : f83a;
    948 : f6a1;
    949 : 0534;
    950 : fffa;
    951 : 0896;
    952 : 0219;
    953 : fbdf;
    954 : 0194;
    955 : fa30;
    956 : f1d4;
    957 : 00a0;
    958 : 0042;
    959 : 03a3;
    960 : 076d;
    961 : 020b;
    962 : 01d8;
    963 : ffae;
    964 : 02bf;
    965 : 04e4;
    966 : 0716;
    967 : 0836;
    968 : ff7f;
    969 : 0435;
    970 : 05fd;
    971 : f80d;
    972 : 02cb;
    973 : 017f;
    974 : 06bb;
    975 : fb7c;
    976 : fbb7;
    977 : fb50;
    978 : fae2;
    979 : ff2f;
    980 : fe65;
    981 : 04ed;
    982 : 0523;
    983 : 03c1;
    984 : 0350;
    985 : 042a;
    986 : 0416;
    987 : fb72;
    988 : f9db;
    989 : 0893;
    990 : f72b;
    991 : 0342;
    992 : 065b;
    993 : fdfe;
    994 : 0462;
    995 : fbc3;
    996 : 0746;
    997 : 04d3;
    998 : fda4;
    999 : 068a;
    1000 : fcf0;
    1001 : f732;
    1002 : 0639;
    1003 : 074c;
    1004 : 080d;
    1005 : f9dc;
    1006 : f14c;
    1007 : f84c;
    1008 : 00cf;
    1009 : faec;
    1010 : 00bd;
    1011 : ff0a;
    1012 : 0451;
    1013 : 0922;
    1014 : 008b;
    1015 : 02a7;
    1016 : 013a;
    1017 : f804;
    1018 : 01c3;
    1019 : 031f;
    1020 : 0668;
    1021 : ffc6;
    1022 : 04e1;
    1023 : 00d9;
    1024 : 0437;
    1025 : 0040;
    1026 : ff0f;
    1027 : fd5f;
    1028 : fd6c;
    1029 : 04ce;
    1030 : 01c6;
    1031 : fb2c;
    1032 : fc43;
    1033 : fe88;
    1034 : 011c;
    1035 : 061c;
    1036 : 0573;
    1037 : fd95;
    1038 : 01d5;
    1039 : faf0;
    1040 : ff06;
    1041 : 0414;
    1042 : fe0d;
    1043 : 02c8;
    1044 : 001d;
    1045 : fffe;
    1046 : fa72;
    1047 : 096d;
    1048 : 05bc;
    1049 : 0523;
    1050 : ff17;
    1051 : 01e0;
    1052 : fd56;
    1053 : 0595;
    1054 : 015e;
    1055 : 04b7;
END;
