fffb
0153
f9c6
fdad
fb1e
0110
fb20
037d
feed
05e2
f721
0051
faca
fec0
0357
ffc7
0987
fd3e
f9c3
024a
fd69
05d3
004c
0534
0209
fe60
ff51
0108
fb44
ff6b
fd5d
0041
fd17
f901
fd6f
fe52
fb4b
fe69
ff97
fc83
0021
f7cf
006b
fdb2
fe15
f98f
01a1
fd60
fd47
fe1f
ff84
ff52
ffea
049b
009f
feee
0873
fd21
0a9d
fee6
0350
0539
ff98
0223
0b25
fd5f
0d0e
ffa2
040f
0510
fdd3
007b
0653
00f5
0a0e
037e
0169
fdca
ff12
fd18
00e7
fd76
06e4
f981
0076
ff96
fad7
033d
0329
013d
084c
00b0
0c12
0258
02f9
faf0
0555
fd78
fd8e
fd40
0089
0036
0393
fb6b
00e6
fbbb
fb23
fc8f
fb84
fd90
0441
ff6b
0237
0067
01c3
fe74
ff4f
ff9d
07e0
018b
06b8
015d
027e
04e5
02cf
0216
ff62
fecc
fff2
007c
0194
016d
fdb7
00bb
fef6
ffa3
0361
027e
002c
0368
0062
019a
005f
fd94
ff88
0117
01c2
fee5
fc84
f8f0
fa66
f645
fee4
02c4
ffdc
fe8e
fff6
fc5f
ff44
fb34
fb1f
ffb5
fabc
fe06
fc2d
fdf5
fb78
fe65
fdc7
ffd5
00d9
fc80
fea2
fe5d
fa0b
fedb
fe82
fe1c
f606
f8da
fb3d
fca1
032c
0043
05dd
0050
f75d
fcbc
f93f
0340
021e
069e
00e0
0201
fa1d
fd86
fcbd
00b8
fe4c
ffae
ffdc
fd3d
ff2a
fdee
ff11
001f
01c0
00b6
0539
fba3
fffb
ff83
ff4d
fda9
ffbc
fc85
011d
f6d1
0acd
f5da
fc30
00d5
ff43
0234
fbce
0444
fc30
ffc0
fce8
fe3f
fee9
066b
fd40
08b5
fd24
0097
0099
fc64
00f0
02f2
0247
066f
0011
01bd
0300
f9c7
0476
faa4
026f
fd77
0185
fcb5
020b
ff47
0303
05ce
0069
043f
fcab
fd3b
fcdf
fe11
fff4
02d5
fff3
ff68
01a6
0276
0804
019d
fd8c
fe57
fbd9
fe8c
ff84
fb22
06b6
f934
fd52
fe54
fc90
fc29
fcef
0222
0321
033a
fb85
fb4e
fae7
fa7b
fbdb
fdc3
0113
ff5e
ff72
fe7a
01ae
0213
003b
024f
ffd5
0029
0237
ff76
fefc
fd2c
021d
fe70
052c
fc45
04e1
fe50
fc78
fb5c
fe6e
018f
feab
0326
03fc
0475
faf0
faf5
fa1c
fc25
00cd
01fb
038d
028b
fd1c
f907
f99b
fa5d
0011
0179
fed7
0298
01dd
0278
0033
0716
0125
ff80
0319
01c7
fbfd
051d
044e
036d
fe83
01ec
00a8
02f9
021d
ffec
0412
03ab
fe95
fe2a
f7a0
fcfe
f37f
fc4c
00e3
0462
00f7
00a1
fcea
fa64
f6aa
fd04
ff6f
026e
fd47
facf
f8b5
f99f
fa0c
fe63
01c4
01e8
0323
029d
0042
059f
0368
0124
08c1
f94d
fdcf
036e
fd2f
0087
f77b
ffce
f493
0457
fde3
fe1a
fd13
fdb8
fde6
fc05
f908
0226
fcbb
fa09
02e2
fff0
0377
027a
0600
05cd
fdcb
fb46
ffe1
fd9d
03dc
ff5b
06cf
05ed
0022
fe7a
fe51
03e2
fda2
023a
ff69
fff8
0469
ff40
fd06
0330
005f
ffa1
f881
fa25
f967
f8ad
fc93
fc48
fb4f
fb56
fdc2
fef1
fd0f
01b6
f959
fcf7
fda0
fbc7
0404
02e8
08a2
0760
f8eb
fdef
fcf8
001f
fdbe
001e
0085
0287
0088
fe10
ffd8
ff1c
feaf
f806
fc4d
f797
fb66
fac0
00dc
f909
01f6
fe27
fe09
0238
fda7
ffea
fdbe
f9e0
feb4
046a
0010
0696
01a7
01e3
0091
fb9e
022d
0155
03cb
005d
0381
fde3
00a1
fc17
04e3
02d9
ff6f
04fb
021a
0298
0217
feab
01dd
fedf
ffd7
fbf6
fc9b
fcca
fc36
fd1b
fe5e
fd98
fc64
fce7
0413
0067
0750
022b
0010
fdb5
fa03
ff3e
010f
02b0
02ac
0114
019a
0359
f8f1
fdd5
f861
ff7e
f9f3
fb38
fe7d
0128
f96a
ff88
faa4
fe63
fcf3
ff86
fe55
001d
ffd1
04c1
ff83
fe5f
0344
fc2a
025a
fa62
ff04
00b5
fdbc
0232
f84c
03bc
f7ff
07f9
0217
01a8
009d
fe05
08d0
feeb
0c49
fddd
04cb
fc1f
0164
01d9
011c
feba
017a
043b
049c
fa53
01de
fef5
058b
fd6d
0611
007b
01f7
01eb
fa61
fa6e
fa77
01dc
fefc
0492
0071
08df
00bb
fef6
fe14
f6ea
017a
f96f
0523
f5d4
ffc7
fb96
fe42
fac6
00ca
fa6c
047d
fbb3
ff31
ffaf
fef5
0230
00be
08c0
ffac
0d93
fdca
fd12
fd3b
02fb
017a
07b1
fe92
0977
018d
00a4
fb31
038d
ff15
0042
ff28
fec5
fce1
022e
0526
01d8
00d9
01a1
f9cd
0163
f7e2
0012
03c6
0080
00fb
faf2
f9ac
f7a2
f19a
fbbd
051b
039d
ff4a
008f
fb03
fdfc
fb8b
002f
021b
049e
00a4
037a
fc39
0391
f821
0601
ff91
00cd
fbab
0a44
0281
01f9
0a91
0061
0a48
fff7
01d9
fefc
fe0f
0401
fa1e
0028
fad5
029a
0356
fcbc
fe1d
0188
f826
fb0d
f796
fbe2
03ed
fea8
fc7e
025f
f6fa
0014
f4d3
fe59
0379
014a
fce1
0276
f905
fe5b
f3ed
fd3a
0269
ff62
02f5
0946
0296
06f4
002a
fdcd
fe13
fa13
ff3b
00e7
0000
004f
fd03
04b8
f985
071e
00fe
fdb1
ff25
0073
00e0
fc00
03fc
f738
ff33
fb17
02dc
fe02
00dc
014c
01aa
f985
fe5a
f75d
ff9b
fdc1
041a
0095
0340
fc47
feee
01dd
f93a
fe2b
fd66
ffcf
f7ff
0242
f4a4
fff8
0142
fd98
fdb5
fbf8
ffa6
fd54
fef8
0305
058d
fb93
02a1
fa3a
019a
f9a9
fcf6
fe63
0502
febf
ff2e
fb9d
fc7f
f9c2
fb41
fc73
0441
0119
042d
0124
ff37
0003
fd00
fe72
ff9a
ff90
03c4
fe6d
0638
fc74
032c
fff0
0564
fda0
020e
fda4
0056
f877
0298
f99c
02db
ff3e
ff64
004a
0073
fb2a
0493
fb3b
06d4
fb52
fe9a
ff3a
ff05
fa9b
0141
fa43
054f
f651
fe38
0037
fd64
ffdc
0323
fc5c
064c
f8ec
ff8e
019d
0495
004e
0089
ff1c
fc69
082b
f2e5
0b7e
0155
00cb
0106
ff88
025e
fe0f
ff89
ff32
00f7
fe33
040e
0239
02f2
fe3b
03d6
fc7f
fced
fff6
0417
fe2e
07ad
fa15
05cf
f8b8
f9fa
01e2
04c3
01e9
02ce
fdb9
023f
f981
fe34
0251
fd05
085b
04d1
041d
067a
03c2
03bc
035d
0b75
035c
03f7
00c7
f9d3
ff22
f8da
ffc5
0c00
01b9
0735
fee2
fc96
ffae
f4f6
ff0e
0951
fd38
056e
fd45
fdb1
feb0
fca5
fed8
07f4
fcb8
05a2
ff19
0019
fed4
fad9
03b5
0194
fdc4
fe79
fdd9
fe11
0203
fe48
ff7e
fb39
039a
0777
03fd
03c3
fc53
0338
f599
0278
f5d9
0431
0228
ffb5
fc48
fc5c
f650
fe28
fbc2
0286
0128
fcd8
fcd6
ff23
fdfc
fd44
007a
0368
0440
fd79
026f
0122
fc9d
fc70
020a
01dc
fe7f
fdc6
0746
fb55
08aa
fd8b
061e
0035
00a0
fb6b
07a7
f9b2
07fc
ffb6
0036
0418
fb68
fd71
0534
fa89
05e5
fe0c
0349
003d
0089
ffb1
0376
fe1c
00c2
fd6a
fcfa
fd0d
fcf6
027a
fd35
fd35
fae5
fce4
fc71
fcfe
f853
ff66
ff53
fdf6
fe9c
00a8
fc6a
005f
ff7e
0868
fc7d
f3b9
fe52
fc9c
0114
fc9c
0290
fe24
f98a
f684
0240
fc30
0ade
ffac
06dd
fc08
0235
fa38
0390
fe1f
086f
fff0
054c
00bb
04d5
fcbb
00e1
023f
020f
050c
0025
0215
003e
ff89
fee9
f982
0583
fadc
00f2
0090
03ee
0098
01a3
01f8
0934
01c5
07e7
ff81
fae9
001f
f4c0
0617
0692
0190
026d
0399
f870
059f
f61c
025b
019e
002b
01e9
fdda
faa9
fdc0
fc67
0330
0180
fd9e
ff95
fb72
fa30
fa66
fe46
ff03
0189
00b7
027a
ff95
ff97
fed4
fce8
03f1
fa60
02a6
03b9
ff25
012f
fe39
fe5a
0269
00c5
fe68
fe1b
fe4f
fe8b
fc4f
fbb1
00f1
fcd9
fc40
fe9b
fd47
fc63
fdde
019e
020f
03e1
fca5
fcdc
fe63
fc91
fd8b
0154
0498
036b
ff57
fecf
0248
003a
0350
f8e0
00f4
f9e5
fba7
f5f5
0014
f98f
0173
01c6
01a9
02bc
0163
ffa0
fb08
fd13
0259
025e
ff88
081e
0042
0294
fa42
fca5
00ba
043b
047d
0261
042e
00fa
fca5
fbe3
ffb5
028f
feae
0277
ff4f
0397
00ac
0013
038b
f864
0413
f5fc
044e
f4f4
fdaf
f7d6
fcc1
fb46
0002
f9de
fdb4
04d8
fd75
081e
fefc
fb05
0015
fd9f
ff1b
01bc
fea6
01a4
027d
fccb
ff40
fdf6
fe1b
01f9
fe6f
f8f3
004c
febd
01f5
fc98
fe66
fdeb
01ed
fe7a
fe77
009d
fd38
018f
fa27
040b
fad2
05d6
fb97
05ac
ffc9
0143
01a4
fca3
0259
f5f9
0879
f821
ff00
00b4
0052
f9a5
fe5e
fcf5
0242
ff27
fcd3
fd22
fba9
fd5f
01b6
011b
0341
0b51
ff6a
fe27
fff4
019a
0265
ff24
0352
086d
fdb4
0042
041d
f9db
00c4
026d
0003
0c58
fc40
126b
fbfb
ff40
fd8e
fb79
01aa
ffe0
04b2
046d
fce3
0053
fe77
fc78
0132
004c
0134
ffaa
fa3d
0145
00f9
f99b
02da
fcef
fef2
f994
f92c
fd54
0299
fbdc
03e9
faf0
00d4
faf1
0145
0200
fed1
03e1
fa2d
00ff
fb7d
feff
0854
fd94
fbd3
fe07
ff71
fedd
fce9
f934
03b4
fb24
fa09
fe4f
fbe4
fb38
fb70
ff7e
003f
fde9
f976
fbff
fa85
fbd6
01be
03a1
03d2
05be
fd36
fca2
fc96
ff8d
fe26
02e9
04f0
0706
fd34
0338
001d
feb0
0271
050c
fcde
07bb
0023
039d
040e
03f0
fb9f
fc1f
ff2d
ff76
00d7
035b
fca9
00ca
ffae
03cf
ff89
ffc2
013c
ffcd
fdb9
03ab
fc31
037e
ffb1
0319
